[PAD]
[UNK]
[START]
[END]
!
"
$
%
&
'
(
)
+
,
-
.
/
0
1
2
3
4
5
6
7
8
9
:
;
?
a
b
c
d
e
f
g
h
i
j
k
l
m
n
o
p
q
r
s
t
u
v
w
x
y
z
«
°
»
œ
‘
’
‽
je
de
pas
est
que
vous
ne
la
il
le
tu
tom
ce
un
ai
nous
en
une
les
suis
pour
me
qu
ca
faire
elle
##s
dans
des
plus
du
moi
tout
qui
te
veux
fait
etait
as
etre
mon
au
avec
se
si
etes
sur
et
sont
pense
avez
cette
es
ils
peux
tres
sais
ou
cela
ici
ete
temps
son
dit
votre
on
pourquoi
ma
chose
toi
jamais
lui
##e
bien
comment
avons
ont
ton
vraiment
quelque
aime
beaucoup
dire
besoin
avoir
tous
personne
par
peut
aller
rien
sa
elles
sommes
va
etais
peu
parler
toujours
maison
quand
trop
mes
encore
monde
comme
deux
vais
quoi
mary
avait
argent
dois
voir
meme
train
arrive
francais
##r
mais
bon
combien
autre
faut
ta
pensais
soit
voiture
aujourd
hui
passe
marie
air
fois
aimerais
aussi
ses
travail
avais
maintenant
plait
fais
vu
aider
deja
quelle
juste
quel
ceci
pouvez
demande
##z
hier
eu
chez
quelqu
##nt
ces
notre
pere
porte
apres
parle
mieux
demain
bonne
sans
livre
prendre
mal
assez
trouve
aide
trois
seul
voulez
toutes
probleme
avant
puis
enfants
noel
devrais
heure
manger
tes
ecole
gens
vie
laisse
aux
savoir
toute
choses
soir
jour
vos
cet
aurais
heures
voulais
boston
##es
espere
grand
nuit
chien
quelques
idee
partir
mere
pris
donne
fut
moment
homme
savais
sait
peur
dis
sens
petit
venir
jours
rester
difficile
derniere
veut
ans
non
nouveau
depuis
tot
amis
simplement
raison
reste
heureux
pu
faites
achete
eau
mange
seule
crois
question
semble
longtemps
semaine
##ment
part
souvent
entendu
##a
pourrais
parents
acheter
ami
sois
devons
leur
sera
jusqu
nom
tard
pendant
entre
croire
rendre
fille
soyez
pouvons
femme
vrai
matin
chambre
penses
oublie
viens
dejeuner
etaient
perdu
desole
pourrait
retard
vas
aucun
telephone
fete
commence
aucune
lire
##t
trouver
arrete
merci
presque
connais
moins
prie
regarde
allez
attendre
passer
doit
allons
jouer
etiez
verite
##ent
dont
cafe
piece
fort
journee
famille
nouvelle
autres
ville
accord
mort
enfant
savez
annee
bus
sujet
essaye
travailler
travaille
lit
occupe
main
##ons
chaque
frere
lorsque
devez
dites
pouvoir
sortir
voudrais
bureau
point
anglais
prends
voulait
alle
grande
##i
devriez
jeune
mis
sous
lettre
veuillez
entendre
pensez
chance
adore
petite
histoire
ensemble
vite
tete
coup
livres
serait
apprecie
erreur
davantage
comprends
sœur
tellement
confiance
essayer
age
fini
bientot
apprendre
donner
envie
laissez
suppose
##it
venu
dix
seulement
##ai
partie
arreter
facile
nos
photo
ci
froid
personnes
serai
pret
demander
marche
montre
colere
questions
nager
devrait
mauvais
police
place
fatigue
joue
ignore
deteste
attention
contre
pres
alors
film
yeux
cote
gare
vois
accident
mettre
reponse
midi
reunion
vivre
ferais
bas
devrions
heureuse
vue
fils
mois
dernier
vieux
compte
velo
pourriez
arriver
endroit
sure
celui
ecrire
possible
prix
ecrit
table
autant
serais
nourriture
comprendre
dur
meilleur
conduire
amie
chat
minutes
malade
belle
feu
regarder
vient
laisser
garcon
genre
boire
mot
medecin
dormir
exactement
importe
verre
maniere
parti
premier
puisse
chemin
aimes
faim
probablement
aurait
plutot
choix
prefere
dessus
dehors
decide
important
ainsi
diner
prochaine
musique
pays
pouvais
cheveux
fenetre
perdre
australie
plan
##ait
visite
beau
premiere
cause
etudier
loin
voyage
leurs
chaud
boulot
ait
cours
ferme
lieu
rencontre
change
tant
appelle
desolee
appris
etions
intention
penser
prenez
savait
vin
chanter
content
affaire
##ur
manque
gros
appeler
attends
japon
peuvent
termine
payer
problemes
vont
prete
quiconque
surpris
essaie
cadeau
lu
pouvait
propos
peine
professeur
fumer
decision
marcher
nouvelles
repondre
securite
lundi
rentrer
utiliser
##te
habitude
changer
chaussures
devoirs
mains
neige
terre
bois
emploi
blesse
ferai
recu
rencontrer
##ne
chercher
agit
garde
vit
##is
cinq
classe
gagne
##ais
auparavant
situation
assis
revoir
faisons
prochain
produit
equipe
parce
the
##re
biere
derriere
facon
ordinateur
completement
langue
voulons
immediatement
mauvaise
chanson
hopital
coute
entrer
route
rapidement
stupide
secret
trente
eux
bruit
riche
arbre
boite
devenir
faisait
##ez
avion
gagner
cœur
discuter
nombreux
occupee
fin
poser
rue
vers
appele
parfois
thomas
tomber
celle
##iez
##le
hotel
souviens
rappelle
etudie
font
tennis
chapeau
dispose
sante
tort
necessaire
television
tombe
affaires
vacances
plein
vetements
fonctionne
guerre
œil
cuisine
laquelle
devant
poste
rouge
commencer
montrer
propre
soleil
lait
numero
plaisir
aimez
cas
certain
cle
instant
magasin
bebe
fasse
retour
tele
vis
veulent
long
ayez
mets
restaurant
vaut
vouloir
mourir
sac
etudiants
parc
riviere
connait
libre
vole
bras
droit
fier
annees
casse
ceux
lumiere
ecoute
lorsqu
rentre
soin
examen
meilleure
##n
interessant
journal
sorte
dollars
ouvrir
plusieurs
rire
suite
vieille
leve
paye
quatre
devoir
##ant
avis
carte
donc
fleurs
interesse
jardin
liste
minute
etranger
garder
nombreuses
##mes
fit
etrange
hommes
anniversaire
capable
fou
gateau
robe
donnez
reparer
compris
pied
voici
cher
dangereux
parlez
expliquer
ouvert
plage
faute
pleuvoir
pluie
souhaite
##ient
##ra
aviez
cherche
desormais
prend
promets
rapport
voulu
chiens
mots
aies
bizarre
conseil
reve
tasse
type
arretez
doute
rendu
amies
erreurs
oui
porter
voudriez
##l
##se
dormi
resoudre
venez
##ux
filles
pleurer
restez
manteau
seriez
six
surprise
##ie
asseoir
mesure
quitte
rendez
finalement
savons
ecouter
finir
continue
regles
suffisamment
tue
##use
courant
derange
tour
allait
amour
excuses
week
dictionnaire
prison
dirait
poisson
##u
entreprise
experience
fera
fermer
lequel
serieux
devenu
piano
refuse
telle
bibliotheque
moindre
avions
poids
reussi
avocat
autour
parapluie
plupart
rend
attendais
chante
gentil
noir
tenir
dimanche
projet
danser
end
grosse
auriez
calme
patron
risque
amoureux
lunettes
salle
serez
simple
adresse
femmes
apporte
bonnes
bu
court
crains
furent
hors
pire
pommes
sol
triste
##er
bateau
habite
japonais
message
##o
allee
face
pose
avance
danger
difference
ignorais
repas
fatiguee
impression
lever
succes
tire
##ont
sommeil
aise
chemise
demanda
promis
taxi
aie
certains
croyais
douleur
impossible
regardez
seconde
seras
appareil
feriez
invite
arme
interieur
jeu
occasion
quels
sorti
certaine
compter
connaitre
drole
haut
mariage
papier
quitter
esprit
viande
##ge
batiment
car
concert
coucher
mit
opinion
venue
allais
avaient
cheval
entends
essayez
idiot
oncle
attendu
courir
intelligent
photos
sucre
lac
occuper
signifie
voyager
aiment
cent
conseille
emprunter
rends
amusant
bons
certaines
pieds
senti
ciel
ferait
force
proche
radio
voix
##rent
30
inquiete
neuf
cles
conseils
garcons
mari
portes
prudent
tableau
travers
banque
environ
imagine
lis
oblige
retourner
animaux
etudiant
moyen
presenter
proposition
stylo
attrape
chats
egalement
present
rappeler
reveille
vide
menti
reflechir
signe
alles
attendez
durant
rejouis
souci
taille
tiens
œufs
dedans
parviens
empecher
prepare
rarement
suivre
vivent
##ce
cesse
contente
couleur
dos
enseignant
parles
connaissez
debout
discours
irai
jeunes
ni
repondu
satisfait
cense
envoye
facilement
guitare
sache
arrivera
espoir
gauche
##ble
aille
cache
chaise
eleves
enfin
mettez
##ions
##on
avenir
bout
continuer
dents
nerveux
parfait
rencontres
viendra
attraper
coupe
responsable
##as
arrives
coin
debut
honte
information
mur
pensait
remarque
semaines
couteau
hiver
offre
pain
pars
ressemble
tempete
tuer
idees
partout
permis
pomme
preparer
rapide
sors
utilise
##tte
different
donna
loi
moitie
semblez
soiree
##nce
##tion
blague
bord
prevu
prit
service
visage
vouliez
##ique
attend
oubliez
vingt
aeroport
longue
marier
propres
revenir
semblait
su
tranquille
vol
##in
bain
blanc
eut
forme
gout
inconvenient
lave
mien
aimait
amuse
canape
cuisiner
importante
machine
nettoyer
nombre
produire
remercier
docteur
glace
ouverte
pleut
universite
vendre
battre
cravate
ennuis
habitue
lentement
montagne
prefererais
supporter
football
fus
roman
sport
voyez
accepte
amerique
mille
prets
public
##de
##rons
an
arrivee
bouteille
parlons
selon
utile
vieil
convaincu
epoque
habituellement
revenu
sentir
touche
vent
appartient
certainement
decider
enseigne
faveur
fiche
generalement
honnete
note
sept
solution
tente
##sse
accepter
aurai
eleve
etats
monte
passee
reconnaissant
rhume
seuls
tokyo
##ation
faisais
groupe
jolie
maladie
tombee
aimeriez
courses
parfaitement
patient
tel
vecu
##ion
##lle
##que
chacun
conscience
disent
huit
obtenir
retourne
savent
sourire
##me
dise
embrasser
exterieur
fallu
frappe
laver
reussir
sauf
verifier
celebre
dirai
etat
mer
regle
terminer
unis
commenca
corps
entree
recherche
cadeaux
copine
cru
douche
entretenir
frais
gerer
mariee
mentir
pont
president
suggere
##able
dieu
endormi
merite
nulle
parole
actuellement
appartement
aura
dure
embrasse
importance
portait
sentiment
truc
commande
decu
dejeune
obtenu
pauvre
presente
seront
inquiet
jeter
mienne
pleine
voila
##aient
##ure
but
clair
grands
langues
memes
pourrions
preter
regrette
restes
cartes
conduit
envers
etage
legumes
ouvre
pause
reellement
societe
soupe
autorise
epouse
extremement
humeur
ira
or
phrase
##ier
arbres
bouton
cinema
controle
convaincre
croit
nez
tourne
##ise
celles
oiseau
perte
pleure
sembles
serieusement
##les
##urs
balle
faux
grave
match
occupes
octobre
paix
possede
connaissance
decouvert
echoue
eteindre
excuse
forte
informations
morte
permettre
promesse
proteger
prudente
ravi
souvenir
trompe
##c
##x
abandonne
chef
choisi
eglise
john
joindre
lors
morceau
musee
prevois
quelles
traite
voitures
comprend
dirais
ecris
lune
pecher
preferee
pretes
serons
suivi
valise
##rai
auras
crayon
devait
dort
ensuite
esperons
fasses
gouvernement
moyens
pique
promenade
recemment
sang
absolument
chocolat
couper
fallait
foule
jambe
ligne
plaindre
portable
resultats
retraite
sortie
tenez
traverser
##0
abandonner
choisir
compagnie
parait
tient
attentivement
comprenez
medicament
mensonge
quelconque
regarda
reviens
super
trucs
village
##na
billet
connu
depense
droite
envoyer
explication
portefeuille
prendra
printemps
soyons
sympa
vus
##ite
article
chouette
corde
ennemi
freres
plu
rate
soucie
allume
assurer
coupable
fiere
fruits
incendie
mauvaises
sel
sent
sombre
agreable
bouche
commis
conge
contact
correctement
faits
hate
morts
nouveaux
permission
remettre
seules
silencieux
surs
vienne
voisins
voler
##au
##ee
afin
appelez
appellerai
arret
aurez
baisse
demandez
direction
doivent
excusez
heureuses
venus
##ire
abord
arriere
derniers
entierement
excuser
explique
interessante
magnifique
parlent
pizza
voit
##teur
crime
date
memoire
oiseaux
particulier
passeport
soient
##che
##ve
demandais
devais
epouser
ile
incroyable
nage
nouvel
politique
cloche
conseilla
devient
disparu
echecs
maries
prenons
raconte
salaire
sonne
##rait
blesser
brise
cacher
chaleur
debarrasser
invites
lettres
mangez
offrir
probable
refaire
urgence
voleur
##pe
eh
essaya
manquer
navire
oublier
paire
peint
realite
reves
sortez
sures
traverse
vraie
##ine
ayons
blessee
chanceux
croyez
demi
eteint
fenetres
instituteur
lycee
monter
sentez
vaisselle
ailles
amoureuse
devraient
dommage
donnerai
gars
grandes
larmes
suffit
vitesse
##ale
details
distance
energie
essayons
met
notes
parie
piscine
prive
saches
veste
##ies
bagages
bleu
circulation
europe
hasard
marrant
marre
medicaments
mise
passez
poche
policier
precisement
reposer
silence
sœurs
##al
10
accuse
aimer
armes
camion
connaisse
disait
eviter
failli
impatient
inquieter
prendrai
reveiller
soldats
songe
##ments
##nte
##us
base
campagne
chaude
maman
meilleurs
saviez
sert
ticket
toit
##la
brule
chansons
comporte
considere
enseigner
fume
imaginer
milieu
partis
plante
presse
tenu
trouves
voyons
##d
##gue
absent
aimais
aurions
bicyclette
commun
connaissait
construit
couru
differentes
faible
horrible
matinee
monnaie
normal
pensent
raconter
reconnu
riz
sauve
sentiments
trouvait
veritable
visiter
alcool
amuser
art
assister
baseball
effraye
exercice
films
folle
ordre
papa
pierre
prise
retire
tirer
valeur
##rie
14
acquisition
amene
chere
comportement
depend
difficultes
ecoutez
golf
implique
lache
montrez
put
roi
sort
timide
toilettes
tourner
veuilles
vire
##ins
##sion
##ue
bonheur
cancer
devenue
doigt
fassiez
imagination
inutile
japonaise
matins
offert
pareille
regime
sauver
skier
theorie
voie
##age
apporter
canadien
champ
depart
dors
etrangers
fil
genial
malheureusement
parlait
petits
pieces
pousser
preuve
sale
tache
##ner
##tre
##ts
appel
apprends
boit
complique
danse
echapper
garage
interessee
manges
resultat
rumeur
siege
traduire
vues
##h
approche
assise
cassee
conversation
esperais
fatigues
fermez
fond
garer
general
grandi
pantalon
terminee
terrible
tien
treize
veuille
zoo
##ir
##ront
alliez
boisson
coffre
contrat
courage
differente
discussion
etrangere
fermee
impressionne
incapable
ivre
jambes
joues
lisez
lumieres
occupees
page
patience
profondement
promener
repeter
traiter
viendrai
yens
##tes
bienvenue
centre
demissionner
dentiste
devint
faudra
feuilles
innocent
new
odeur
oublierai
peinture
preferes
resolu
restee
ri
semblant
supermarche
tienne
unique
atteint
attendait
cents
charge
cherches
clairement
concentrer
efforts
ennuyeux
foot
idiote
jeux
malheureux
mec
moteur
possibilite
projets
raisonnable
samedi
saute
souris
systeme
vert
vote
##ille
##rd
##ume
aurons
aveugle
convient
costume
course
dingue
discute
intelligente
jaloux
londres
merveilleux
obligee
roses
soif
souffle
verifie
vint
##ca
##nons
##nts
aiderai
disposons
disputer
exemple
indiquer
laisserai
menteur
nee
noms
plans
pousse
pratiquement
programme
puissions
queue
sauter
sommet
toucher
york
##aux
##ras
ascenseur
attaque
biscuits
bouger
changement
couramment
couvert
disposez
enfance
essence
fortune
gentille
maisons
peindre
poissons
populaire
rendit
reponses
##sent
##ter
agir
assit
attendons
bonjour
difficiles
dises
doue
foret
meurtre
oreilles
ouvrez
panne
personnel
remis
resterai
serieuse
station
uns
veniez
video
##nes
##sons
##ule
beurre
connaissais
echappe
echec
emmener
gardez
partage
peche
pratique
proximite
recommande
riches
sortit
souhaitez
supporte
vase
##ler
##y
aides
allees
assurance
assure
atteindre
aupres
billets
blanche
blesses
crie
crise
diplome
doigts
fiers
habille
mangent
membre
pouvions
prouver
repos
tenait
totalement
urgent
vivant
##aire
ameliore
armee
belles
cercle
commencons
depeche
detendre
ecrivez
entier
histoires
ignorer
infirmiere
jette
ouvrit
paie
passes
poeme
portez
promesses
rencontree
soudain
travailles
##ma
##mment
##ta
arreta
augmente
bete
ceinture
cherchez
correct
couche
decida
emmene
haute
magazine
mathematiques
mecs
nourrir
ordinaire
population
puisses
repare
serre
survenu
timbres
viennent
##ance
aimons
attendrai
conduis
decede
emporter
fer
fous
horreur
interet
mignonne
partez
plat
regard
serviette
spectacle
suspect
temperature
voulaient
##nne
##sait
aimerait
animal
cessez
creme
curieux
devine
donnees
egard
enquete
etagere
excellent
fache
flics
image
invitation
journaux
mignon
moque
ordres
oreille
rejoindre
saison
sentait
souffre
special
tandis
##ante
##igne
##rais
##son
ailleurs
aliments
annonce
arrivent
colline
credit
critique
decouvrir
decue
disponible
ferions
fievre
france
improbable
joueur
jouez
limite
orange
partons
passagers
petites
plantes
pouviez
quant
retirer
reveillee
travaillez
venues
verrai
##oire
alla
caisse
chanteur
chateau
chaussettes
club
copain
demandes
deranger
explosion
forces
fromage
hein
jure
mondiale
periode
piege
raisons
rempli
responsabilite
rompu
sentais
sortes
tendance
travaillent
vendu
##res
ajouter
amitie
arriva
arriverait
celibataire
dernieres
dine
emprunte
enorme
entraine
etoiles
eus
feras
fumee
laissa
laisses
loyer
membres
monsieur
objectif
parvenir
poches
prudents
rater
realise
remercie
ridicule
sachiez
talent
terme
travaillons
vend
##oir
##riez
##siez
admire
allions
artiste
beaux
chauffeur
connaissons
conscient
continuez
crier
deprime
deuxieme
disposes
divorce
enerve
eveille
fonctionner
grace
habituee
juge
leger
minuit
nique
parfaite
parmi
passait
preoccupe
soi
trou
voudrait
##iser
##sa
accompagner
aidez
augmentation
autorises
baisser
beaute
combat
confectionne
contrarie
demarrer
demenage
emporte
existe
file
froide
longs
perds
points
presence
puissiez
quinze
reconnaissante
respecte
sentis
servi
servir
somme
suivant
trouvez
usage
valises
vivons
##lles
##lons
##tait
##tique
apprecierais
arretes
aussitot
chinois
coups
enseignante
epaule
epuise
facture
ferons
guere
heros
internet
invitee
jouons
mode
ouvrage
posa
pourrai
regardes
suffisant
tiroir
traitement
troisieme
viennes
##if
admettre
aidera
apprecient
cinquante
clients
concerne
courrier
dame
delicieux
derangerait
entendue
escaliers
futur
gentillesse
immeuble
jackson
jete
malin
menace
ravie
refrigerateur
refusa
retrouve
sandwich
sentie
site
tante
test
tremblement
##aine
##cte
##ible
adorent
ancien
cherchais
coincidence
complet
conduite
controler
depecher
deroule
descendre
dessous
ecoutes
ecrivain
efficace
environs
estomac
explications
fatiguees
he
herbe
laissee
liquide
nerveuse
parlais
partager
perdit
plaint
pleuve
pointe
produits
quartier
recevoir
rendue
ressens
resta
risques
soixante
tenue
theatre
veille
voisin
web
##ns
annule
apportez
asseyez
bague
barbe
buvez
continua
courte
cuisinier
differents
disposer
distinguer
double
education
effet
etudes
excellente
faite
fermes
four
heureusement
impatiente
institutrice
jouent
lance
lecture
nature
nord
nu
paris
partit
preferable
pression
prudentes
rappelez
rappelles
regler
remonte
reserve
respect
rouges
sapin
seche
souhaiterais
souper
stupides
tarte
vendredi
##cons
##onne
##rer
##ute
000
acquerir
addition
ameliorer
assieds
ball
bouge
brouillard
chatte
copie
courageux
deviner
egal
engage
exprimer
fleuve
fumes
importantes
instructions
inviter
joli
longues
lourd
pardonne
perdue
plainte
plaisanter
prenom
preuves
prevenu
puni
rentree
saoul
sieste
tomba
usine
##ole
##ses
##tant
##tif
assiette
assistance
banc
bar
blessees
capitale
chances
choisis
difficulte
drogue
electricite
expres
fassions
franchement
gaz
hauteur
jouait
joyeux
jus
malentendu
malgre
medecins
meubles
montra
mordu
parvenu
poulet
profond
reflechi
rencontrees
respecter
ressenti
romans
secours
soulage
##ois
##p
amuses
auraient
auteur
chevaux
chine
conference
connaissent
contacter
demie
descends
disiez
ennuyer
espace
evident
exige
impatience
inhabituel
interdit
magasins
matiere
meilleures
mortes
operation
paresseux
parte
prevenir
progres
quantite
relation
rende
repose
science
semblent
telles
trouvee
##be
##gne
##ile
##iste
##niez
##ures
##uses
##va
20
aient
aine
amusee
auquel
bienvenu
bleue
camp
censee
cesser
conducteur
coule
cour
courut
declare
empeche
essaies
etang
etudiante
fausse
fautes
fis
formulaire
frapper
gants
honneur
horloge
lecon
ment
miroir
nuages
paquet
peau
persuader
prisonniers
quasiment
reduire
remets
rentres
reviendra
sage
sejourne
soudainement
survecu
tapis
toile
virer
vivait
volontaire
##bles
##cha
##iere
##pes
##tons
100
absence
accomplir
alarme
album
allonge
applique
attendent
capables
changements
commettre
conges
consulter
detail
diable
economie
ennemis
entra
enveloppe
frappa
frigo
genie
illegal
informe
logique
loupe
maire
mene
merveilleuse
nul
pattes
pleuvra
proches
recuperer
refuser
respirer
retrouver
sable
situe
sud
tromper
vieilles
##ames
##ement
##f
##gique
##ves
##viendra
accidents
allemand
brosse
canadienne
chanceuse
chasse
constamment
determine
durer
eteins
examens
faisiez
fruit
furieux
gueule
humains
lampe
manon
mont
naissance
natif
neiger
nie
optimiste
pale
paroles
particulierement
places
posez
possibilites
prevoyez
remede
remise
remonter
rendrai
saint
satisfaite
ski
verrouille
voter
##tions
accompagne
admets
agee
agissait
americain
annuler
autorisee
claire
client
coince
conditions
contents
corriger
couple
depourvu
ecart
egoiste
ennuie
estime
evidence
familier
fleur
frequence
interrompre
irons
leva
mens
metres
naturel
ours
poster
preferez
reussite
rever
reviendrai
rues
solaire
sourit
tues
volant
volonte
##cer
##mie
##nel
##ou
##ques
##sez
##ttes
2013
allergique
arrivez
automne
battu
blagues
bol
capitaine
carottes
charger
choc
choisissez
commencez
depasse
detruit
devenus
directeur
dispute
doux
elu
employes
enleve
etrangeres
francaise
gene
gorge
hesite
huile
injuste
liberte
lignes
linge
miracle
ordinateurs
participer
passa
passera
planete
poupee
reconnais
rose
sain
suicide
superbe
tableaux
taux
terriblement
##ales
##cteur
##da
##gie
##sions
##tra
accroche
actuelle
allumer
apparence
baiser
brillant
chargee
cherchait
cigarette
commencent
decrire
descendu
dessert
diriez
echange
encre
endormie
endormir
essayais
exact
fetes
honnetete
hurler
jaune
large
louer
manieres
maria
mechant
mentionne
meteo
mission
niveau
obeir
ocean
parla
parties
patronne
poussiere
prof
qualite
retenir
rit
saura
sortons
suggestion
survivre
trouva
violon
##ations
##des
##gre
##m
##mons
##rant
##ution
accompli
appelee
apprecier
assiste
basse
chandail
code
concours
confortable
consacre
cousin
coutera
demeure
directement
eloigne
employe
entendit
etant
etudies
formidable
fuji
grossier
incroyablement
invente
jalouse
joie
juger
montrerai
moral
options
pareil
passage
pauvres
pneu
portent
pull
quotidiennement
role
sales
satisfaits
secrets
supplementaire
sympathique
telephoner
trahi
trouvent
œuvre
##5
##ctive
##ieme
##iens
##ieux
##ime
##ive
##li
##naire
##nd
##tage
achats
adopte
affecte
allemagne
amical
avancer
blessure
bombe
casser
choque
clef
compare
comptes
contrariee
convaincue
correcte
cotes
demissionne
desire
disais
document
documents
echelle
effrayee
entrez
epaules
etoile
etude
excite
fantastique
fournir
humour
indique
jazz
mangeons
marteau
metro
montagnes
ombre
onze
organise
os
pardon
pensiez
personnelle
plafond
possession
poule
produise
publie
quarante
repondit
restait
revienne
salade
sortis
source
suivez
taches
temoin
vaches
venait
villes
##imes
##nait
##ssant
##um
accorde
achetee
aimable
ambulance
arretee
asseyons
attitude
bataille
cardiaque
changent
cloture
courriel
cuire
decisions
employer
envoie
etoffe
expert
ferez
firent
forcer
goute
gratuit
grimpe
grimper
habituer
harvard
lancer
lapin
levres
menteuse
millions
mouchoir
mourut
naif
objection
oh
ongles
oublions
passees
payee
penetrer
pleuvait
profonde
propose
reflechis
remettez
ressources
serpents
signification
supplementaires
tenter
trompes
vente
verres
vivez
œuf
##3
##b
##ck
##ees
##isse
##lon
##nais
##nions
##ot
##ote
##pte
##rite
##tiques
##ut
##vons
acheta
adultes
appelles
arrivees
attache
ballon
changera
compose
contraire
cout
couter
deviens
dira
domicile
effectuer
embarrasse
enseignants
entiere
enverrai
examiner
fantomes
fiable
figure
foudre
frontiere
impots
interesses
jetez
lourde
manche
mangea
manques
marque
maternelle
mensonges
objet
outils
partiel
perplexe
petrole
pot
pourraient
prisonnier
regardait
rendra
reponds
repris
reprises
reservation
ressembles
retarde
retira
scientifique
sensible
sentit
serions
signer
vache
violence
##4
##g
##ic
##ien
##irent
##isme
##nique
##oua
##per
##qua
##rouille
##tiez
##ton
abri
accent
acteur
adorerais
agent
ambitieux
attirer
blamer
ciseaux
collection
comptez
condition
cou
croyait
cruel
debrouiller
defi
destin
disposais
divorcer
dorment
dote
doutes
douzaine
douze
eclate
ecrite
ecriture
empire
evidemment
forts
fuite
gardes
gere
interprete
jeta
locuteur
methode
miens
objectifs
obliges
oranges
permettez
pese
placard
plaintes
pleurait
position
rare
rendrait
renverse
ressemblent
savaient
scene
similaire
sourd
tape
tas
televiseur
traduit
unes
utilisez
verse
viendrais
##ateur
##eur
##iers
##lait
##lement
##lit
##lite
##ssa
##ver
adorable
adulte
aimerions
amener
arranger
balles
batterie
boissons
bonde
canadiens
causer
cd
ceremonie
classique
comite
commences
construire
contient
couverture
creve
cuillere
debrouille
depenser
discutons
effectue
effort
embouteillage
enfuir
entraineur
espagne
etudiez
exacte
fac
facons
factures
faisaient
faisant
gamin
gele
genoux
iras
jouets
justice
legerement
libres
miel
moto
noire
nomme
offense
oppose
papiers
pelouse
perd
personnellement
poli
privee
rase
rattraper
remplir
revenez
soutien
subi
suit
surement
teint
tendu
tickets
traduction
voleurs
##bre
##cant
##et
##ger
##ide
##liez
##lin
##lir
##ration
actrice
admis
afrique
ambition
americains
arretons
arrivait
augmenter
autrefois
avantage
bananes
boutique
bœuf
centaines
couleurs
demarre
depechez
detestent
dettes
devenues
donnes
embauche
etonne
exception
fantome
forcee
grenier
humide
identite
impressionnee
jouais
jupe
laissons
licencie
loup
mars
milliers
mince
moderne
moyenne
nerfs
nettoie
noirs
opportunite
oses
ouest
panier
pardonner
pensons
prevoir
professionnel
prononcer
quelconques
sacs
saisi
shirt
sienne
sincere
supposee
surprendre
telephonerai
tels
terrain
touchez
travailleurs
trouverais
vehicule
victoire
viendrait
##ces
##cher
##he
##igner
##ing
##mis
##ore
##ppe
##rde
##rs
##ssent
##vait
agees
agi
aida
alentours
apprecies
apprend
araignees
atmosphere
basket
branche
caches
calmes
camera
cede
censes
collier
compromis
construction
croient
demenager
desaccord
desirez
determiner
diagnostique
donnee
droits
eclata
emplettes
enfui
entend
enterre
envisage
ferma
feuille
fonctionnera
gentils
gravement
greve
horaire
issue
italie
kilometres
langage
menu
modele
origine
parcourir
payes
plaire
plaisante
prises
profondeur
prononce
ramene
ramener
regretter
rendent
renvoye
reproche
rumeurs
saurais
seau
serrure
sonna
surprenant
surprises
survenir
trouvais
verrouillee
viendras
zone
##aires
##der
##iel
##ieuse
##nant
##nelle
##nie
##ouille
##ree
##rit
##ture
##ulte
ame
approuve
bal
besoins
chaises
chauffage
connue
cuisiniere
depenses
deposer
deprimee
descendez
destination
dormait
electronique
endroits
entendis
entres
envisager
etudiantes
evenement
fixe
foire
fortes
fraiche
genereux
grosses
habillee
habiller
heurte
incapacite
librairie
maths
morceaux
musicien
option
ouvertes
partirai
perdus
persuade
petrin
poignee
policiers
porc
poursuivi
preterai
promene
quitta
regulierement
repondez
restons
salon
satisfaire
serrer
soigneusement
soins
souvenez
taire
termes
tournez
tracasse
trouverai
trouveras
trouvons
venais
vends
victime
vitre
voient
volume
zero
##1
##2
##cier
##dit
##ia
##il
##ls
##prit
##sant
##sible
##ste
##ui
##uit
accorder
acheterai
action
application
appuyer
argument
assistant
aube
bougies
brillante
bruyant
camarades
chambres
cigarettes
commentaire
confiant
connaissiez
consequences
conte
debarrasse
descendit
deviennent
distrait
douce
election
esperait
etres
goutte
habiter
importants
innocence
invitees
journaliste
jumeaux
kilos
lent
lien
lion
maitre
marchera
mesures
mirent
necessaires
nuits
oignons
panneau
pistolet
poil
poison
prennent
presents
promettre
promit
proprietaire
protection
prouve
publicite
rejete
remporte
repete
reprendre
resister
responsabilites
revient
romantique
rouler
rythme
secondes
secretaire
secrete
soucis
souffrir
soupconne
style
suicider
surveille
tendit
touristes
travaillais
trouble
vain
visa
##6
##ard
##die
##ges
##iques
##isation
##mation
##ndre
##ngle
##sif
##ssez
##ti
##tive
abattu
aboyer
acheterais
aimee
ancienne
angleterre
appelait
appetit
approcher
attente
autrement
ayant
budget
calin
changea
cheque
chers
concentre
conduirai
confus
coudre
craindre
degats
deplacer
desert
desespere
differemment
digne
douloureux
ecrase
elephants
endormis
enigme
entendus
epais
epargne
eprouve
evite
fachee
favori
fermees
fichier
finie
folles
garderai
gratuitement
grotte
habits
hesitez
ignorez
insiste
longueur
malchanceux
manquent
marchandises
million
mises
mystere
nier
normale
parfum
participe
parvenus
pilote
poitrine
pressee
prevenue
prevoit
principale
professeurs
prudence
pus
quittez
retenu
sejour
sincerement
souri
souvenirs
tatouage
texte
timbre
trouverez
utilite
voulions
##alite
##cien
##cieux
##dite
##ison
##k
##lot
##matique
##nee
##rge
##rions
##tent
##vant
##venu
actions
ajoute
apparemment
appartiennent
appela
appreciez
arriverai
attendit
attirante
avise
baignoire
banane
boites
boue
calmer
chanteuse
chic
climat
colle
commerce
condamne
conserver
continuait
coutent
craint
cuit
defense
degage
dernierement
detonation
dette
doucement
economise
engager
entendez
envoyez
equipage
etendu
extraordinaire
finit
flic
foi
fourchette
gaspiller
grippe
guide
hautement
inde
inquiets
intime
jean
leves
levez
luxe
magazines
maigre
malheureuse
manquez
manuel
marchait
meurent
mine
mordre
murs
nation
obscurite
observe
occuperai
parlerai
partes
passons
permet
phrases
physique
plaisanterie
plastique
poker
pourras
poursuivre
pouvaient
profite
pyjama
remarques
rembourser
rendiez
rendons
responsables
rompre
sauce
scientifiques
sec
sentent
serpent
servez
sites
soirs
sushis
tentative
terrifie
tiendra
tranquilles
utilises
ventre
vides
vies
voisinage
voisine
##ables
##ba
##cable
##con
##ct
##dre
##gle
##ication
##isee
##lant
##ologue
##omme
##os
##ota
##raient
##rine
##ssait
##sser
##table
##tez
##uel
##ura
##yiez
abeille
acceptable
advienne
agace
americaine
appuie
appuye
assurez
bienvenus
blancs
brievement
calendrier
camper
candidat
candidature
chauve
chemises
chinoise
choquee
chute
conclusion
consacrer
coutume
credule
culture
deces
decevoir
delai
dent
devenait
devras
disposent
embrassa
enfreint
enterrement
escalier
essaierai
eteignez
excitant
expliqua
fabrique
fonds
geniale
genou
gerant
grossiere
humain
hypothese
idiots
ignores
impoli
incident
insulte
intelligents
joueurs
juin
justement
levee
maux
medecine
mentez
merites
miennes
millionnaire
ministre
montez
moustiques
nana
nettoye
normalement
noye
obligees
ordonne
orteils
orthographe
ouverts
panique
passent
passerai
patiente
pensees
pierres
pitie
plie
pluies
poete
ponctuel
portee
precieux
preparee
principal
proceder
promettez
quart
rappellerai
recherches
recommencer
regardais
regardons
reprocher
reproduira
reputation
retirez
retournez
sejourner
serieuses
siffler
soucier
souhaiter
soulever
souvient
suivante
triche
types
univers
utiles
vague
volontiers
##7
##bus
##cle
##el
##ines
##ises
##lette
##mine
##nche
##ng
##ni
##oque
##rique
##saient
##tation
##titude
##ulaire
##vage
##vation
##verse
##vis
50
absente
agis
aidee
arrange
attendions
attentif
avoue
avril
bebes
cage
chiot
chomage
commencais
commencement
commercial
corrige
couvre
curieuse
debat
dessiner
diamant
dirige
eclair
electrique
enchante
entendues
entrainement
espoirs
essai
eteignit
etonnant
evoque
fauche
fie
fierte
fraises
galerie
gentleman
habitudes
hais
impressionnant
inevitable
interessees
interesserait
limites
mariees
meritez
mettons
mignons
montes
moquer
moutons
neuve
nue
opinions
ouvriers
patients
plats
poemes
pompiers
prenne
prennes
procurer
propriete
reaction
remplissez
requis
reserver
retourna
reussira
reviennes
rideau
roule
saisir
salut
saurait
sceptique
separes
sers
siecle
sien
soldat
soutiens
surface
surpoids
symptomes
tension
tenta
tentation
tetu
trains
traversa
valait
veiller
visiteurs
vive
votres
##aye
##bile
##cale
##ches
##cite
##cule
##gna
##h30
##ignait
##illa
##isant
##laire
##nde
##ome
##ong
##oue
##rez
##ri
##ris
##tie
##uis
##vent
aboie
acces
achever
adolescent
adolescents
advenu
aiderait
allumette
amusez
anciens
appels
auto
autorite
avere
avertir
avocats
baleine
bande
bizarres
blessures
bottes
bouchon
bougie
brave
briser
cabane
cambrioleur
capacite
cendres
cependant
clefs
coincee
commander
conduisez
contentes
cool
courus
cria
criminel
debutant
defauts
demandai
depit
detestes
deviendra
devra
dollar
domaine
economiser
elections
entoure
envoya
epoux
essayerai
etasuniens
faille
falloir
farine
fauteuil
fondu
fortement
fourni
gache
gateaux
gosse
habitent
informer
inquietez
inspiration
intentions
lachez
legal
lesquelles
loue
malheur
melange
metier
meurtrier
natation
naturelle
necessite
nia
noter
nourri
objets
oublia
paierai
parliez
pensions
pneus
pourra
preniez
presser
prince
profiter
prononciation
puisque
puits
recolte
redige
reflexion
region
restiez
revenue
revenus
rideaux
satisfaites
sauta
savions
sensation
sinon
solide
sonner
souhaites
stade
steak
suisse
trainer
travaillait
trempe
valable
venons
verrouiller
vertiges
volontaires
##9
##ain
##at
##atoire
##chons
##crit
##dis
##ence
##euse
##fice
##ifier
##illes
##lier
##oche
##ose
##out
##pot
##quet
##rage
##ria
##ry
##stre
##tiens
##tres
##usse
##vint
##vite
absurde
accro
aidiez
ailes
ainee
alibi
allumee
amusees
apprennent
araignee
arretait
attire
balance
batiments
bel
biens
bieres
bleus
bonhomme
bruler
capte
chantes
charmant
cible
competition
comporter
concernant
conclusions
conditionne
consiste
couler
crayons
curiosite
decus
defaut
delicieuse
demandait
depeches
detendu
diminue
dingues
disposee
dossier
drapeau
echarpe
echouer
ecoule
ecrivit
effectivement
effrayant
effrayes
embarrassant
embete
emotions
enceinte
enlever
enthousiasme
escalade
espion
etranges
exces
existence
experiences
faciles
familles
fermement
frappee
frequemment
frites
front
fusil
gacher
gagnera
grammaire
humanite
imbecile
impliquee
impressionner
inconnu
influence
insectes
introduit
irais
irait
jaunes
jugement
maitriser
marchez
messages
meurs
micro
natale
nes
notres
nus
organiser
osaka
ouverture
paraitre
parlaient
parvenue
pauvrete
penetre
perdez
phares
plaisantes
pleura
populaires
presenta
presentes
pretendu
promotion
prudemment
publique
raisins
realiser
reception
recommanda
reconnaitre
reduit
regardent
rembourserai
renard
reveilles
rock
souhaitons
souleve
superieur
supposes
talentueux
tirez
valentin
victimes
violent
vomir
voyages
voyait
vrais
##chon
##ciaux
##ciere
##co
##cs
##elle
##enant
##fait
##fique
##gnait
##gues
##hi
##ications
##iller
##indre
##isons
##lie
##lo
##mique
##mit
##nable
##nis
##ola
##one
##our
##oux
##pa
##ral
##taient
##tile
##trai
##ua
##xte
##yant
##ye
achetez
acheve
activite
affame
ah
aiderais
allure
amoureuses
assiettes
attendant
attribue
automobile
avertissement
avocate
blanches
bouteilles
brosser
cerf
cheminee
commets
comprendrais
confirmer
consideration
considerer
consommation
cuir
decevant
degoutant
demanderai
demission
dentifrice
derobe
desoles
desordre
dessin
detestait
devrai
devrons
direct
disons
dommages
don
donnent
dotee
durs
elegant
elevee
embrasses
emplois
encourage
enerver
envoyees
essayes
essentiel
experts
expliquerai
fallut
feront
feux
fiancailles
fieres
fumeur
garee
gaspille
glacee
gras
gris
habitait
helicoptere
ideal
impatients
irez
jouet
lanca
lapins
legere
litterature
marches
masque
mi
monta
moques
mord
mouvement
naive
negociations
oreiller
partiez
personnalite
pharmacie
photographie
pile
plaisantez
polie
portail
pourrons
production
rang
raquette
recherchent
reconnue
record
reel
rejoint
relations
remarquer
reporter
reside
revela
robinet
ronfle
sachant
sagesse
sauves
simples
speciale
supplie
tasses
tira
tomates
tombees
tourna
toux
typhon
viendrez
vivants
voies
##arde
##cieuse
##cions
##ction
##eau
##fiant
##fie
##gation
##gnon
##gueur
##iant
##ignit
##isser
##line
##lis
##lla
##naient
##nellement
##nette
##niste
##oint
##ol
##para
##pide
##ps
##quant
##rain
##tible
##tir
##tit
##uer
##v
300
abasourdi
allai
amer
ange
annulee
apprenez
arnaque
arriverent
arrivons
asie
averti
battent
bazar
bourre
capacites
chaine
chants
chaussure
cherchent
chevre
claque
college
commandes
comprennes
comptable
confrontes
cookies
coupez
courts
crainte
cran
critiques
danseur
decore
depourvue
desoriente
detestais
devrez
disponibles
disposition
duree
economique
ecoutait
embeter
embrassee
emmenez
ennuyeuse
envoyee
epouvantable
equilibre
etape
etudions
exprime
faillite
fermier
finis
finissons
gardons
generale
glisse
gouts
hall
halloween
humble
hurle
immense
impressionnes
inconscient
industrie
interesser
intimite
jeans
jetons
kyoto
laid
laissera
largement
maitresse
majorite
maladies
manifestement
mechante
merde
meritent
metal
mobile
motive
mouille
moustache
occasions
offrit
organisation
pardonnerai
parking
parlerons
partira
paysage
pensee
perdant
perdons
plombier
poing
port
pratiquer
precis
prenais
prendrais
prendrons
princesse
procure
pue
pure
ramasse
randonnee
ranger
rapporte
rats
recente
redire
refugies
religion
rencontriez
rentrant
reparee
reporte
reproduire
restera
revele
scolaire
seraient
singes
songer
soutenir
stylos
surtout
surveiller
survivants
taper
telecommande
tiendrai
tint
titre
tombes
totale
trembler
trouvera
usa
vegetarien
vendez
ventes
verrais
version
vertige
weekend
##aie
##cait
##cation
##ch
##cia
##cture
##dette
##dition
##dons
##ds
##gant
##gramme
##ifie
##igna
##iment
##int
##jection
##let
##mait
##mer
##mier
##mon
##ndit
##ocation
##oires
##ologie
##position
##riques
##rte
##sante
##sive
##tenez
##teurs
##uler
##vais
##vale
##veu
##vions
##vre
##yait
achat
adresser
ages
agressif
alice
alimentation
amende
apercu
arrache
arretees
arriverons
arterielle
assassine
auront
avera
avouer
bordel
bouchee
bougez
bouillir
bourse
bracelet
causes
cave
cerveau
changerai
chicago
circonstances
commentaires
commerciale
compassion
compliment
compliquee
compreniez
conclu
connaissances
consommer
cooperation
cooperer
copies
cousine
couteaux
creuse
croissance
dangereuse
dangers
declenche
decouverte
degres
demandons
desir
dessine
devions
disant
disputent
disque
eclater
effets
emploie
enferme
entretien
environnement
epee
essuie
eternellement
eumes
eveillee
exploser
expose
finira
fouille
heroine
horriblement
ignorait
images
impliques
indice
innocente
instrument
interessantes
intrigue
jeunesse
jusque
laissent
largue
lendemain
lentilles
lisait
lus
majeure
marron
meprise
miles
mouillee
munitions
noix
nombres
nourris
nucleaire
pagaille
partirons
pensa
planter
poivre
portaient
positif
potable
premiers
prepares
presses
pretend
priorites
raccroche
raconta
raser
recette
reconnus
regretteras
reine
remplace
reproduise
respiration
reveil
ruine
salue
sauvee
savon
scie
secoue
seize
semblables
semestre
separer
serveur
severe
situations
souffert
specialite
stock
strict
sueur
suivie
surmonter
surprend
suspecte
tabac
telephonique
tiennent
tours
trahie
trompette
troupes
trouverons
uniforme
vendent
verrons
volee
volent
##ablement
##ace
##ade
##ages
##ail
##bli
##courir
##di
##dra
##eux
##fection
##ffe
##ha
##ielle
##ieusement
##ifs
##ils
##ires
##irs
##isa
##issent
##istique
##itation
##ives
##lore
##lure
##mande
##mination
##mite
##neries
##oie
##orme
##ouche
##ouffe
##oyable
##phone
##ple
##primer
##pris
##rable
##riee
##ries
##rocha
##rouiller
##rque
##sses
##ude
##urant
##usement
##uve
##vienne
##vole
##vrit
##yons
abeilles
acier
acte
adapter
agite
aiguille
allant
alternative
annoncer
apprecions
apprendrai
approprie
aspirine
atroce
atteignit
attendiez
attendue
bizarrement
bonbons
cacha
canada
carriere
cauchemar
celebres
censees
champagne
changez
chant
chirurgien
citron
collectionner
commencerent
compagnon
complexe
comprise
continuons
contribue
convaincus
cordes
coton
coupa
courageuse
courait
courtes
cree
crimes
croira
croise
crue
cuisines
decedee
declara
decolle
decorer
decourage
decroche
defendre
dela
detective
dimanches
disparut
distances
distribue
dresse
dut
ecoutons
ecrirai
effrayees
effrayer
egare
emu
enfuit
entendimes
entrees
entreprises
epousa
equipes
escalader
espece
essayait
eue
eurent
exagerer
exigences
expression
expulse
falaise
fidele
fleche
fonctionnent
foyer
franc
gentilles
gentiment
groupes
herbes
honnetement
honnetes
huitres
ignorance
indifferent
inflation
inquietude
installer
interessants
interrompu
japonaises
jeudi
lacets
laissees
lessive
lustres
majeur
mandat
manuels
marchant
medicale
menageres
mener
mentent
mercredi
mette
moments
negligent
negocier
noyer
obtiens
olympiques
onereux
opera
ordonna
ordures
organisee
original
oxygene
pages
papillons
paresseuse
pari
partent
pates
pete
peuple
planche
poliment
pollution
possibles
postale
pouls
precieuse
prenait
prevoyons
prirent
puissant
punie
ras
reconnaissez
regardant
rejoindrai
relativement
remarqua
remplacer
ressemblait
ressemblez
ressent
reussiras
reveillez
reveler
reviendras
revue
rome
scandale
sentirez
serie
serviettes
shopping
silencieuse
souciez
souhait
soulagement
statue
suivrai
sujets
tarder
taxis
technologie
temple
temporaire
trompee
trompez
tuees
vecut
veritables
verriez
vimes
viree
vivais
voulut
##ards
##bilite
##cial
##cine
##cit
##ctus
##ere
##ette
##fre
##giste
##gnant
##guer
##ibles
##ignes
##ina
##ition
##lation
##llait
##mme
##mule
##nces
##nds
##nez
##nsion
##ntes
##oins
##oise
##om
##onner
##orca
##ors
##otte
##pere
##pit
##prime
##quis
##quons
##rce
##rice
##riete
##rir
##risa
##rue
##scope
##sus
##time
##tives
##uble
##uche
##ues
##ueux
##umer
##uvre
##vention
##vez
##vra
##wa
15
achetes
adieux
aident
ail
aimera
aimiez
alite
allonger
alluma
apercevoir
apparition
approchez
appuya
architecte
arretiez
arrivames
arrose
asthme
attendra
attentes
bagnole
baigner
baissez
baton
bible
bienvenues
blonde
buvons
cacahuetes
cadavre
calcule
certitude
chantez
cherchons
cheville
chiffres
choisit
coiffeur
collegues
complete
comprennent
confondu
conserve
consomme
constitue
contraint
couloir
couverte
creuser
crut
cultive
decembre
decidee
decoller
definitive
degote
degueulasse
deplace
desesperee
detends
dirigeons
distributeur
drogues
dura
dus
ecoles
ecouta
emission
emmenage
empecha
ennuye
enormement
epaisse
esclavage
espagnol
essuya
etroit
evacuer
evier
ex
examine
exercer
expire
exposition
faibles
faudrait
fiancee
fiez
flammes
fourmis
fric
grenouille
grille
guitariste
gym
hache
hauts
humaine
imaginee
imprimante
ingenieur
insense
insupportable
justesse
labeur
laide
latin
lavez
libere
lincoln
lois
magie
mangeais
mangerai
manquerez
mecanicien
medical
mele
meler
modeste
montee
mutuellement
necessairement
nettoyez
offenser
otages
ouie
ouvrages
parfaits
particuliere
patiner
peintre
percute
pianiste
plaignent
plaisanteries
plut
poele
politiciens
postule
pourrez
poussa
prendrait
prevenus
principe
puissent
qualifie
racontes
racontez
ralentir
rappele
rat
rechercher
recoltes
recommander
refuserais
remarquable
rencontra
rendes
renonce
restees
richesse
rigoler
rugby
ruisseau
saisis
sentiras
sidere
singe
sou
soudaine
sourcils
sourde
stress
stupefait
subir
subvenir
suggerer
suspendu
symbole
testament
tissu
torche
totalite
trace
traduis
traites
travaillerai
trentaine
tricote
tuyau
ventilateur
visible
vivaient
##alement
##an
##anche
##cade
##caire
##chets
##cot
##cre
##ctueux
##diction
##duction
##fere
##force
##gan
##gots
##hique
##ignent
##ignez
##ilite
##ipe
##irai
##iront
##licite
##lique
##logie
##logique
##mblaient
##mue
##ngions
##nir
##oigne
##olue
##ord
##orte
##rade
##raine
##raux
##rier
##rnes
##sance
##see
##sie
##sole
##ssements
##traire
##urie
##vable
##viendrons
##viennent
##vir
19
500
abandonnez
absents
absorbe
accusa
accuserent
acquis
actes
actif
advenir
affreux
agisse
aimerez
allames
alphabet
ambassade
amenez
ampoule
appartiens
apparue
applaudi
apprentissage
approbation
appuyez
arroser
articles
astronomie
atterri
attrapa
attrapez
autorisees
blame
ble
boucle
cachee
cafards
candidats
canon
capture
casque
casquette
cassez
changes
charbon
charmante
chauds
cherchiez
cicatrice
cingle
colis
comprenait
confiture
contrariees
contraries
convenable
convenait
coupee
couteux
couts
crache
cramponnerent
crane
culpabilite
decedes
dechire
declaration
delicate
deserte
destinee
detester
differences
droles
echanger
effraie
egaux
elephant
embaucher
enregistre
entrainer
epreuve
exclu
exigea
explose
faineant
fermeture
fichiers
folie
forment
garantie
gaucher
genereuse
gorgee
gosses
gratte
guerir
guise
habitants
habitez
hantee
impuissant
inconnue
independant
inquietes
installe
intelligence
interessent
jolies
jouions
jumeau
lecons
logement
logiciel
lundis
machines
mai
maitrise
mangee
marathon
materiaux
meurt
mexique
moche
negative
nettoya
niche
nuage
obligez
obtient
offensee
ote
ovni
pacifique
paniquer
paradis
parais
parlera
partageons
passager
peches
peinte
photographe
pige
piste
plaira
plonge
ponctuelle
pondu
portais
pourvu
precipite
predit
pretez
pretre
principalement
principes
probabilite
proces
produira
proverbe
provient
provoque
punis
pur
quittee
quittes
rapproche
realiste
recupere
refusait
regardiez
regretterez
rencontrez
rendus
repasse
repond
requiers
requise
reserves
respire
restaurants
retournons
revint
rigole
russie
sacree
salee
sauvages
scolaires
seisme
septembre
serra
servent
serveuse
services
signes
sinceres
solitaire
souviendrai
sports
strategie
sucreries
tais
talents
tentons
tiers
toubib
transforme
tremblements
tresor
trottoir
trouvai
trouvaient
trouvees
truite
tuberculose
tuez
utilisation
utilisee
vaudrait
veine
vendeur
vendus
viendriez
virent
virus
vola
voudront
whisky
œuvres
##00
##8
##antes
##aque
##ate
##atif
##ax
##bots
##cee
##cence
##cent
##ception
##chet
##clina
##cter
##cteurs
##ctif
##ctrice
##cue
##dation
##do
##eille
##erie
##fices
##fle
##fort
##gations
##gee
##graphie
##ifications
##ignements
##ignons
##iles
##ira
##ke
##liste
##llon
##loue
##mais
##man
##metre
##mi
##mode
##nage
##ndirent
##ndrons
##nonca
##nter
##nti
##onnable
##ope
##or
##orons
##ouc
##ouru
##oya
##oyen
##pines
##porta
##pture
##pute
##quilles
##rne
##route
##siste
##ssons
##ster
##tais
##tifs
##tine
##tirent
##ud
##uites
##uleux
##une
##val
##vateur
##vie
##viendrez
##viendront
##viens
##vier
##vise
##voir
##vrier
##xe
abandonna
abandonnes
accorderent
accusee
accuser
achetees
actuel
adolescente
adorait
affection
aiguise
aimeras
alimentaire
amusante
apparences
applaudir
apprenons
assises
atomique
attaquer
attendaient
averse
bandes
bidon
bijoux
biscuit
bleues
bouts
bowling
breve
canne
casier
cerisiers
chacune
champs
chanceuses
chasseur
clarifier
climatisation
clin
cochons
cogne
coiffure
combattre
commet
commune
communiquer
comparee
compositeur
comprehensible
comprendriez
comprenons
comptons
conduise
confier
conflit
confronte
consciente
contenir
contenu
courez
cousins
couterait
cultures
dames
decouvre
decrit
demandent
desagreable
desastre
desesperement
difficilement
diplomate
dirent
disparaitre
disposait
douceur
draps
echantillon
ecureuil
effondrer
elegante
elever
eloignes
eloignez
embarrassee
empirer
endormit
enlevez
ennemies
entendent
entrainee
epicee
epuisee
especes
evanouir
excites
executer
exemples
exerce
experimente
facteur
fan
fascinant
ferie
fiables
fimes
finale
fixa
flute
fonction
fondee
fourre
fuit
fumez
funerailles
furieuse
gagnes
gamins
genee
grandement
gratuite
habitueras
haricots
hausse
hockey
hospitalite
humilie
imaginais
immobile
inattendu
incorrect
incroyables
indispensable
informatique
inspire
intelligentes
interets
internationale
interromps
irresponsable
jalouses
joignez
journalistes
jury
laisserais
lavee
laves
lions
loterie
loups
maligne
malins
mangeant
mangera
manquera
marine
materiel
memorise
mentalement
mercis
mettent
mouilles
mozart
nues
officier
orage
otez
paires
papillon
park
partions
parvenues
passionnant
pathetique
patienter
payez
perde
perdues
permanence
permets
permettrai
pizzas
placa
pleurent
pompier
possedait
pourboire
poussez
predire
prejuges
preparez
preserver
prevenues
prier
procede
procedure
profit
provisions
rangee
rattrape
rechauffe
recois
recue
recut
rediger
refais
reflechissez
remplie
renommee
rentra
retablissement
retires
revu
sacre
sanguin
saumon
saurons
selfie
semblable
sense
separe
similaires
situee
soie
sorties
soul
suggera
suggestions
survenait
technique
tendre
tendue
tortues
tradition
tranche
travaillerons
tribunal
tricher
trouverent
tua
uniquement
universitaire
vaincre
verte
visiblement
vision
vivante
voile
vols
voyiez
yen
##anement
##ans
##ants
##atique
##bine
##cal
##cede
##cevoir
##chi
##dier
##duisit
##ele
##ferer
##ffes
##ficielle
##fles
##fraction
##hu
##iche
##ifle
##ige
##ignirent
##issant
##ista
##istait
##ita
##itude
##ivent
##ki
##las
##mant
##mbla
##mettre
##monie
##mpa
##ndant
##nnent
##nsif
##oing
##oma
##opin
##ort
##osse
##oyait
##perant
##pice
##pie
##piez
##pons
##rds
##revisible
##ride
##roduisait
##rouva
##ruque
##sais
##ser
##ssante
##sseurs
##tante
##tee
##th
##tinent
##trait
##trice
##trons
##tures
##uation
##uffe
##ula
##ulation
##utions
##verser
##vinmes
##viser
##vrons
##vront
##yions
##ys
16
abstenir
accepta
accueil
accusation
achetons
achevee
acquitter
adapte
admet
adversaire
aimaient
ajoutez
alcoolique
alimentaires
allumez
allusion
americaines
anciennes
apparu
apporterai
appreciais
appreciait
arrivais
arriverez
attirant
audition
avantages
bagarre
baguettes
bail
baissa
balai
bat
bateaux
boivent
boucles
branches
bref
bresil
brisee
cachette
cahier
caisses
carbone
causee
celibataires
chair
cheques
cheres
chienne
cinquieme
cite
communication
compatis
competent
comportes
comprenne
congres
consommes
contacte
continuent
contracte
copains
couvercle
couvertures
craignez
cri
criminels
cruelle
dangereuses
debattre
debattu
declarez
defaite
delicat
depechons
dependons
deprimant
detient
developpe
developper
deviez
devinez
diplomee
directe
dirigea
disposions
doive
donnerent
dorenavant
douleurs
durent
ecraser
ecrive
eiffel
emballe
empreintes
ends
ennuyez
enqueter
enthousiaste
entraider
epinards
eponge
esprits
eteinte
etiquette
etroite
evanoui
evenements
expliquez
favorite
financierement
forcees
gate
glissant
gobe
gouttes
gre
habitais
habites
iceberg
ignora
ignorent
impressionnees
imprudent
indigne
inscrire
inscrit
intentionnellement
intervenir
inutiles
inventer
jambon
janvier
judicieux
juillet
jules
jumelles
levent
lisant
livraison
livrer
magnifiques
mail
maintenir
malades
mangerons
manifestation
marcha
marient
marins
mecontent
medicaux
menaces
menage
merveille
mineur
mobilier
montres
mouches
moururent
nageur
nations
neigera
noyade
nœud
occupera
orateur
orchestre
ouais
outre
ouvris
paient
paiera
paraissait
pareilles
parent
partant
partenaire
partenaires
parvenez
parvienne
passerait
peigne
pensaient
performance
pertes
perturbe
pessimiste
pilules
pince
plains
plaise
planifie
pleines
pleins
poesie
poings
poupees
pourparlers
pourrie
poursuivit
pouvoirs
precedent
precises
premieres
previsions
produirait
progressivement
proposer
protege
puissante
raciste
raide
rassemble
reagi
reagir
recompense
recule
redemarrer
reessayer
referai
relache
releve
religieux
rembourse
remporter
rencontrons
rentrera
repandue
repasser
reposes
ressentez
ressentir
retournes
reussit
reverrais
rond
ronde
roue
routes
saine
saluer
sanglots
satisfaisant
seduisante
semblerait
seme
sensibles
serviable
sied
sitot
souhaitais
soulagee
soumis
sourient
soutenu
spaghettis
stationnement
strictement
suivit
survivra
susceptible
sympathiques
tentes
toilette
tonnes
total
traces
traduisez
traire
transpire
travailla
travailleur
tueur
utilisant
vaccin
valent
vitamines
voudra
##50
##aise
##aitre
##amine
##are
##atives
##auter
##borde
##bot
##card
##celle
##chait
##chee
##connait
##cope
##daire
##dant
##dique
##du
##eaux
##ellement
##elles
##ession
##este
##ets
##fa
##gade
##gieuse
##gner
##gniez
##gon
##ilier
##iqua
##itre
##ivite
##ka
##lage
##laient
##lande
##lez
##liers
##lige
##los
##lose
##luent
##lus
##lut
##mature
##mente
##met
##mette
##monte
##naux
##neur
##ngue
##nier
##nille
##nner
##nnes
##ntir
##ocataire
##ode
##oiffe
##ook
##ores
##oter
##ouee
##oupie
##ourdi
##ours
##oyons
##pir
##pira
##piration
##plice
##poser
##pprochons
##psie
##pt
##quait
##quiert
##quin
##range
##ratif
##rifie
##rime
##rin
##rire
##rone
##ruisent
##sme
##stique
##tention
##tial
##tis
##tourne
##trions
##truisent
##tter
##ttez
##ttons
##unes
##urer
##urne
##urons
##uscule
##utant
##venait
##venant
##venez
##venons
##venue
##verti
##vins
##voles
##vrait
##ya
##yaient
##ze
13
25
abandonnerent
acceptez
acceptons
accrocher
accusations
acide
adieu
adopter
adorais
adorons
affames
agriculteur
alentour
amicale
amicaux
analyse
angle
anonyme
appareils
apparut
appelons
appliquer
apprecieriez
armoire
arrestation
assirent
astucieux
attacha
attaqua
attentive
autoriser
avale
aventure
bains
baleines
barman
barre
barreaux
battus
bloquee
boucher
boulangerie
boutons
brille
bruits
brusquement
bulletin
cafard
californie
calmement
campus
carton
ceder
chanta
chantait
charite
charme
chasser
citoyens
climatique
clochait
clous
cocaine
collectionne
commission
communaute
compliquees
comprenais
con
concu
concurrence
conduisit
confie
confirme
connaisses
connexion
conscients
conseiller
consideree
consideres
construite
contactez
contentez
correspond
couches
coude
coureur
couverts
couvrez
craquer
croises
croix
cueilli
dauphin
debutants
deception
decharge
decois
decues
defis
degoute
deguise
democratie
dense
denue
departement
dependant
dependre
depose
derangee
dessinees
destine
detaillee
detendue
differe
dinde
dinosaures
diront
dissertation
dissimuler
donnera
douee
dresser
durera
ecarte
ecoutais
ecoutee
effondre
elue
empoisonne
ennuies
entendais
entende
entendons
envahi
epargner
erronee
eruption
esclave
essayai
etasunien
eteintes
euros
eveilles
excursion
execution
exister
fassent
felicite
feliciter
fiction
filer
fine
flotte
foirer
forcement
fournit
foutu
fuir
fumait
gaffe
gaspillage
grandir
herite
hesiter
horizon
horrifie
hotels
impermeable
impliquer
inacceptable
incompetent
incorrecte
indecis
informee
intense
interrompez
introverti
invention
investissement
ivrogne
jogging
jongler
jouant
lacher
lesquels
local
lutte
maintes
maladroit
manipuler
manquait
manuelle
mardi
mare
marmotte
massage
medaille
memoriser
mentait
menteurs
mention
meres
meure
militaire
minimum
moquez
motif
moustique
muscles
natifs
nationale
naturellement
nausee
navires
negligence
nerveusement
nuageux
obei
obligation
observer
opposes
organises
paraissez
pardonnez
pare
parlant
parlions
passerent
patates
pate
peintures
penible
pente
peser
picasso
placer
plairait
plaque
pleures
pleuvrait
plier
pluvieux
politicien
porta
portrait
posons
posseder
pouce
poules
poussent
prenant
preparation
pressa
prevenant
prisonnieres
productif
professionnelle
profil
proposez
provenance
puissance
raccourci
rassembla
ravissante
rechauffer
recommence
reconduire
reconnaissants
recouvert
reculer
redaction
regrettable
rejetee
rendait
rentrez
renverser
repondrai
repousse
requerir
restais
restent
resterez
retenue
reveilla
reveillees
reverrons
revolution
rirent
ris
roti
rougir
ruines
russe
sains
sainte
salua
sandwichs
saxophone
seance
sein
separees
serment
serrez
serviteur
sexy
sms
sombres
sortait
souciais
souriait
souriez
souvienne
statistiques
supposition
supposons
survient
syndicat
taquine
tartes
telecharge
tester
texto
tiennes
tigre
tires
torture
touches
touriste
tousser
tracer
tragedie
traine
traitent
traitez
traitre
tranquillement
transpirer
travaux
trebuche
tristes
trouviez
tunnel
utilisent
vegetarienne
verifiez
verrouillez
viendront
vif
vigilant
violoncelle
vivement
vivrai
volley
voyant
vraies
##aler
##aliste
##amina
##ative
##aute
##axe
##ayer
##ayons
##bes
##campe
##cession
##chant
##chasse
##chez
##ci
##ciable
##ciale
##combres
##crite
##cta
##ctes
##ctions
##ctives
##dieux
##dote
##douille
##ecte
##endre
##epere
##ercer
##ffla
##ffle
##ffre
##fia
##fiait
##fonce
##gi
##gieux
##ginaires
##git
##gnarde
##gout
##graphe
##hie
##iaire
##icale
##idaire
##idus
##ienne
##ieres
##ifiee
##iguer
##inaire
##inte
##irons
##issante
##issez
##itais
##itive
##ivant
##lable
##lame
##land
##latte
##liger
##lisation
##llee
##llier
##locution
##loque
##lou
##mateur
##matiques
##mence
##mina
##miner
##mions
##nat
##nateur
##nca
##ncier
##nction
##ndait
##ndu
##neuse
##niche
##niques
##nsive
##nuer
##ocaux
##ociation
##ocie
##od
##ographie
##olent
##ologique
##omi
##ommage
##omprehension
##onds
##onna
##oree
##ormation
##ormuler
##oule
##ourant
##oyais
##oyal
##pens
##penser
##pet
##phique
##pi
##pin
##pita
##plia
##portait
##posa
##ppa
##prenne
##quaient
##quence
##quer
##quillage
##rame
##raque
##relle
##rement
##rige
##rio
##rise
##riste
##rme
##ro
##ronde
##rouillee
##rurgie
##sionne
##sir
##site
##ssive
##suada
##tagne
##tants
##tenu
##tenue
##tesse
##til
##tin
##tint
##tta
##uait
##ualite
##udes
##uellement
##ueuse
##uiez
##ul
##ularite
##umee
##upe
##uration
##urgie
##urier
##usa
##uvrit
##vee
##viendriez
##viez
##vinrent
##vit
##vrir
##xible
##œur
00
18
abattre
abattus
aboli
abuse
acceptera
acharne
acquitte
activites
administration
adorer
adressee
affirme
agence
agriculture
aidait
aidons
allergie
amusons
anglaise
anneau
anxieux
appellent
applaudit
arc
arnaquer
arracher
arretera
artifice
ascension
assois
astucieuse
atterrissage
automatiquement
autoroute
auxquelles
averee
aveugles
balade
balcon
barriere
bati
bavarde
bille
bio
biologie
bisou
blaguer
britannique
brulant
brulee
bruyamment
bruyante
buvais
buvait
cables
cachez
calcul
cambriole
canard
canoe
canular
carnet
carrure
catastrophe
catholique
ceda
cendrier
cessa
chaleureux
chandelle
chantage
chercha
choisie
choques
chutes
cimetiere
cliquez
clou
coinces
commencerons
commettez
competences
complets
comptais
compteur
condoleances
confesse
confiante
connecte
connus
considerez
contacterai
contenait
continues
contribuer
conviendrait
courante
coutumes
covid
craignais
craignent
crea
credible
creer
criait
crus
cuilleres
culot
cure
danseuse
decor
decouvrira
defait
defunt
deliberement
delicieuses
dependent
description
detendez
detenu
detestez
detonations
detruire
devaient
diabetique
diamants
dirigez
disaient
discuterons
disposees
domestiques
dormirai
dormit
draguer
echappa
eclairci
ecoutent
ecoutiez
ecran
emballer
endort
enfile
enleva
enregistrer
enrhume
enterrer
entraines
epeler
epluche
eprouvant
epuises
essuye
estimez
etendue
eternite
etouffe
etudient
eusse
evade
evitez
excellentes
excitee
extreme
fabriquee
fautif
felicitations
fiance
fichez
fixer
fonctionnait
fondement
forcez
fourrure
fout
foutre
fracture
frustre
fusillade
gachette
gagnerait
galant
garda
gaspillez
gel
gonfle
graines
grandit
grasse
grievement
habitues
haleine
hamburger
hideux
hilarant
hospitalise
imiter
immediat
impliquees
impuissante
informes
infos
innombrables
inondations
inscription
instinct
interdite
interroger
intersection
inventa
invita
jesus
job
jouaient
jugez
lacet
laches
laisseront
lasse
leche
lie
lisais
lise
lits
locuteurs
louper
lue
lyceen
malchanceuse
malediction
manches
mannequin
maree
marin
melodie
menacee
menee
mental
mentionner
meprisent
meritons
mesurer
metaux
meteorologiques
miracles
mondial
montant
mouche
mule
musees
nees
nerveuses
niece
nourrit
noyee
ok
oter
pair
palais
pantalons
parcourut
pardonnera
parfaites
parvient
passant
pasteque
payees
pelle
pencha
perdis
permanente
personnelles
physiquement
piles
pirates
plaisantait
plancher
pop
possedes
poubelle
prealable
preoccupation
preparees
pretendre
priorite
produisent
professeure
proie
puces
punition
quai
quatorze
quelquefois
quoiqu
rafraichir
rage
rampe
rares
ravir
realisera
recherchons
recoit
recouverte
recus
referais
regret
regulier
remettra
remit
remplis
renouveler
reparations
represente
reproches
requin
resistance
ressembler
resteras
resterent
retabli
retrait
rivieres
rougis
ruban
ruse
sages
sarcastique
saut
sciences
secheresse
second
sembler
sentiez
separement
shakespeare
signez
sociale
specialiste
splendide
stop
stressant
subitement
suivis
suivrait
survienne
sut
suture
talentueuse
taxe
taxes
tetes
tigres
tolerer
tolererai
tombant
tombent
tournee
trait
transmettre
transporte
travaillant
trousse
trousses
trouvions
tube
tuerai
unies
union
vaincu
verts
videz
villageois
vinrent
vins
voisines
volcan
voudrez
##!
##"
##$
##%
##&
##'
##(
##)
##+
##,
##-
##.
##/
##:
##;
##?
##j
##q
##w
##«
##°
##»
##œ
##‘
##’
##‽
